TRT-8503-EntropyCalibration2
images: 3bf80000
/Slice_output_0: 3bf80000
/Slice_1_output_0: 3bf80000
/model.0/conv/Conv_output_0: 3e2a84d7
/model.0/act/Sigmoid_output_0: 3c010a14
/model.0/act/Mul_output_0: 3e0282f9
/model.1/conv/Conv_output_0: 3ddc6f18
/model.1/act/Sigmoid_output_0: 3c0068d2
/model.1/act/Mul_output_0: 3d0269d3
/model.2/cv1/conv/Conv_output_0: 3d7c7e3a
/model.2/cv1/act/Sigmoid_output_0: 3c02b562
/model.2/cv1/act/Mul_output_0: 3d0ef914
/model.2/Split_output_0: 3d0fd691
/model.2/Split_output_1: 3c6b8a55
/model.2/m.0/cv1/conv/Conv_output_0: 3d61f910
/model.2/m.0/cv1/act/Sigmoid_output_0: 3c0376e6
/model.2/m.0/cv1/act/Mul_output_0: 3cbfb1d8
/model.2/m.0/cv2/conv/Conv_output_0: 3da58861
/model.2/m.0/cv2/act/Sigmoid_output_0: 3c010a14
/model.2/m.0/cv2/act/Mul_output_0: 3d37fae1
/model.2/m.0/Add_output_0: 3d5a5a5e
/model.2/Concat_output_0: 3d681901
/model.2/cv2/conv/Conv_output_0: 3d2e8636
/model.2/cv2/act/Sigmoid_output_0: 3bff9b21
/model.2/cv2/act/Mul_output_0: 3ce5e069
/model.3/conv/Conv_output_0: 3ce5dad3
/model.3/act/Sigmoid_output_0: 3c0061da
/model.3/act/Mul_output_0: 3ceb8f5e
/model.4/conv/Conv_output_0: 3dba8748
/model.4/act/Sigmoid_output_0: 3c010a14
/model.4/act/Mul_output_0: 3dc8e56e
/model.5/conv/Conv_output_0: 3d33de67
/model.5/act/Sigmoid_output_0: 3c010a14
/model.5/act/Mul_output_0: 3d29c3b9
/model.6/cv1/conv/Conv_output_0: 3d60a2ce
/model.6/cv1/act/Sigmoid_output_0: 3c010a14
/model.6/cv1/act/Mul_output_0: 3d8c3711
/model.6/Split_output_0: 3d39f6bc
/model.6/Split_output_1: 3d1d3bc7
/model.6/m.0/spatial_mixing/Split_output_0: 3d424e02
/model.6/m.0/spatial_mixing/Split_output_1: 3d1e3e36
/model.6/m.0/spatial_mixing/partial_conv3/Conv_output_0: 3d02f3db
/model.6/m.0/spatial_mixing/Concat_output_0: 3d1e3e36
/model.6/m.0/mlp/mlp.0/conv/Conv_output_0: 3d9ffee9
/model.6/m.0/mlp/mlp.0/act/Sigmoid_output_0: 3c003048
/model.6/m.0/mlp/mlp.0/act/Mul_output_0: 3cff6f8b
/model.6/Concat_output_0: 3d420f9a
/model.6/cv2/conv/Conv_output_0: 3d70155c
/model.6/cv2/act/Sigmoid_output_0: 3c0714fe
/model.6/cv2/act/Mul_output_0: 3d00f015
/model.7/conv/Conv_output_0: 3d31fbe6
/model.7/act/Sigmoid_output_0: 3c0334a3
/model.7/act/Mul_output_0: 3d20efa1
/Concat_output_0: 3d0f472b
/model.8/avg_pool/GlobalAveragePool_output_0: 3cfe05fb
/model.8/Reshape_output_0: 3cfe05fb
(Unnamed Layer* 147) [Constant]_output: 3b807a16
/model.8/fc/fc.0/MatMul_output_0: 3ce5514d
/model.8/fc/fc.1/Relu_output_0: 3d0d92d0
(Unnamed Layer* 150) [Constant]_output: 3b3beb0e
/model.8/fc/fc.2/MatMul_output_0: 3c848634
/model.8/fc/fc.3/Sigmoid_output_0: 3bde6971
/model.8/Reshape_1_output_0: 3bde6971
/model.8/Mul_output_0: 3cfe9e25
/model.8/Slice_output_0: 3d32af3d
/model.8/Slice_1_output_0: 3c8cc8a1
/model.8/Concat_2_output_0: 3cfe9e25
/model.8/Add_output_0: 3d57a2cc
/Slice_2_output_0: 3d57bc8c
/Slice_3_output_0: 3d2f88d9
/model.9/cv1/conv/Conv_output_0: 3d5d9b86
/model.9/cv1/act/Sigmoid_output_0: 3c06dcad
/model.9/cv1/act/Mul_output_0: 3d12ea37
/model.9/Split_output_0: 3d12ea37
/model.9/Split_output_1: 3cc14cf7
/model.9/m.0/cv1/conv/Conv_output_0: 3d5f9e5c
/model.9/m.0/cv1/act/Sigmoid_output_0: 3c00d736
/model.9/m.0/cv1/act/Mul_output_0: 3d024b4c
/model.9/m.0/cv2/conv/Conv_output_0: 3d5cc215
/model.9/m.0/cv2/act/Sigmoid_output_0: 3c00a7e5
/model.9/m.0/cv2/act/Mul_output_0: 3cff7ca9
/model.9/m.0/Add_output_0: 3d517cec
/model.9/m.1/cv1/conv/Conv_output_0: 3d7bfd8d
/model.9/m.1/cv1/act/Sigmoid_output_0: 3c00c411
/model.9/m.1/cv1/act/Mul_output_0: 3cb2ea30
/model.9/m.1/cv2/conv/Conv_output_0: 3da4a7ec
/model.9/m.1/cv2/act/Sigmoid_output_0: 3c075e8b
/model.9/m.1/cv2/act/Mul_output_0: 3d699505
/model.9/m.1/Add_output_0: 3dbaebbe
/model.9/Concat_output_0: 3d4519ef
/model.9/cv2/conv/Conv_output_0: 3d92f3c7
/model.9/cv2/act/Sigmoid_output_0: 3c021375
/model.9/cv2/act/Mul_output_0: 3cea1a2e
/model.10/conv/Conv_output_0: 3d86a9bd
/model.10/act/Sigmoid_output_0: 3c00f120
/model.10/act/Mul_output_0: 3d25d366
/model.11/cv1/conv/Conv_output_0: 3d86d632
/model.11/cv1/act/Sigmoid_output_0: 3bffae25
/model.11/cv1/act/Mul_output_0: 3d001a13
/model.11/Split_output_0: 3cff8f21
/model.11/Split_output_1: 3d0fee4d
/model.11/m.0/spatial_mixing/Split_output_0: 3cfe2031
/model.11/m.0/spatial_mixing/Split_output_1: 3d0fee4d
/model.11/m.0/spatial_mixing/partial_conv3/Conv_output_0: 3cdf2286
/model.11/m.0/spatial_mixing/Concat_output_0: 3d001a13
/model.11/m.0/mlp/mlp.0/conv/Conv_output_0: 3d2971bc
/model.11/m.0/mlp/mlp.0/act/Sigmoid_output_0: 3c007ca3
/model.11/m.0/mlp/mlp.0/act/Mul_output_0: 3cff7fbe
/model.11/m.1/spatial_mixing/Split_output_0: 3cd2b505
/model.11/m.1/spatial_mixing/Split_output_1: 3ce60aee
/model.11/m.1/spatial_mixing/partial_conv3/Conv_output_0: 3cc2a898
/model.11/m.1/spatial_mixing/Concat_output_0: 3ce60aee
/model.11/m.1/mlp/mlp.0/conv/Conv_output_0: 3d654f08
/model.11/m.1/mlp/mlp.0/act/Sigmoid_output_0: 3c0203b3
/model.11/m.1/mlp/mlp.0/act/Mul_output_0: 3ce9297a
/model.11/Concat_output_0: 3d11d0ee
/model.11/cv2/conv/Conv_output_0: 3d0d0a5c
/model.11/cv2/act/Sigmoid_output_0: 3c00626e
/model.11/cv2/act/Mul_output_0: 3d108cf5
/model.12/conv/Conv_output_0: 3d43426f
/model.12/act/Sigmoid_output_0: 3bffef89
/model.12/act/Mul_output_0: 3cc031ee
/Concat_1_output_0: 3ce8308f
/model.13/avg_pool/GlobalAveragePool_output_0: 3c760a4b
/model.13/Reshape_output_0: 3c760a4b
(Unnamed Layer* 369) [Constant]_output: 3a9fc97b
/model.13/fc/fc.0/MatMul_output_0: 3c8a58de
/model.13/fc/fc.1/Relu_output_0: 3c8a58de
(Unnamed Layer* 372) [Constant]_output: 3aa688a5
/model.13/fc/fc.2/MatMul_output_0: 3c0d3965
/model.13/fc/fc.3/Sigmoid_output_0: 3bce32d9
/model.13/Reshape_1_output_0: 3bce32d9
/model.13/Mul_output_0: 3cad475b
/model.13/Slice_output_0: 3c7dbfc6
/model.13/Slice_1_output_0: 3cad475b
/model.13/Concat_2_output_0: 3cad475b
/model.13/Add_output_0: 3d574f64
/Slice_4_output_0: 3d574f64
/Slice_5_output_0: 3d2cef37
/model.14/cv1/conv/Conv_output_0: 3d898a17
/model.14/cv1/act/Sigmoid_output_0: 3c00f188
/model.14/cv1/act/Mul_output_0: 3d00149c
/model.14/Split_output_0: 3d00149c
/model.14/Split_output_1: 3cb2add4
/model.14/m.0/cv1/conv/Conv_output_0: 3d8ebeae
/model.14/m.0/cv1/act/Sigmoid_output_0: 3c00e7fd
/model.14/m.0/cv1/act/Mul_output_0: 3d13468d
/model.14/m.0/cv2/conv/Conv_output_0: 3d832b18
/model.14/m.0/cv2/act/Sigmoid_output_0: 3c00d7ab
/model.14/m.0/cv2/act/Mul_output_0: 3cd11dbd
/model.14/m.0/Add_output_0: 3d670639
/model.14/m.1/cv1/conv/Conv_output_0: 3d8cd3fe
/model.14/m.1/cv1/act/Sigmoid_output_0: 3c00dd50
/model.14/m.1/cv1/act/Mul_output_0: 3ce80f01
/model.14/m.1/cv2/conv/Conv_output_0: 3d972a51
/model.14/m.1/cv2/act/Sigmoid_output_0: 3c00f1c3
/model.14/m.1/cv2/act/Mul_output_0: 3d1097a2
/model.14/m.1/Add_output_0: 3d8dddb6
/model.14/Concat_output_0: 3d108d07
/model.14/cv2/conv/Conv_output_0: 3d8cacfd
/model.14/cv2/act/Sigmoid_output_0: 3c00f161
/model.14/cv2/act/Mul_output_0: 3d00e65f
/model.15/conv/Conv_output_0: 3d61356c
/model.15/act/Sigmoid_output_0: 3c00ecbf
/model.15/act/Mul_output_0: 3d0184fd
/model.16/cv1/conv/Conv_output_0: 3d57dcb5
/model.16/cv1/act/Sigmoid_output_0: 3c004958
/model.16/cv1/act/Mul_output_0: 3cd3aded
/model.16/Split_output_0: 3cd3aded
/model.16/Split_output_1: 3d01e326
/model.16/m.0/spatial_mixing/Split_output_0: 3cd11ed2
/model.16/m.0/spatial_mixing/Split_output_1: 3d01e326
/model.16/m.0/spatial_mixing/partial_conv3/Conv_output_0: 3cf886d2
/model.16/m.0/spatial_mixing/Concat_output_0: 3d01e326
/model.16/m.0/mlp/mlp.0/conv/Conv_output_0: 3d40d1fb
/model.16/m.0/mlp/mlp.0/act/Sigmoid_output_0: 3c001794
/model.16/m.0/mlp/mlp.0/act/Mul_output_0: 3cbffc63
/model.16/m.1/spatial_mixing/Split_output_0: 3ce657d6
/model.16/m.1/spatial_mixing/Split_output_1: 3cc078a5
/model.16/m.1/spatial_mixing/partial_conv3/Conv_output_0: 3cc1e33b
/model.16/m.1/spatial_mixing/Concat_output_0: 3cc078a5
/model.16/m.1/mlp/mlp.0/conv/Conv_output_0: 3d6895cd
/model.16/m.1/mlp/mlp.0/act/Sigmoid_output_0: 3c005caa
/model.16/m.1/mlp/mlp.0/act/Mul_output_0: 3ce97c57
/model.16/Concat_output_0: 3cd3aded
/model.16/cv2/conv/Conv_output_0: 3d4ad517
/model.16/cv2/act/Sigmoid_output_0: 3c0136a8
/model.16/cv2/act/Mul_output_0: 3d01b08d
/model.17/conv/Conv_output_0: 3d3e329f
/model.17/act/Sigmoid_output_0: 3c02dd2c
/model.17/act/Mul_output_0: 3cd34693
/Concat_2_output_0: 3d0184fd
/model.18/avg_pool/GlobalAveragePool_output_0: 3c69fe4d
/model.18/Reshape_output_0: 3c69fe4d
(Unnamed Layer* 591) [Constant]_output: 3a11bb22
/model.18/fc/fc.0/MatMul_output_0: 3ce31f30
/model.18/fc/fc.1/Relu_output_0: 3cea495c
(Unnamed Layer* 594) [Constant]_output: 3a462375
/model.18/fc/fc.2/MatMul_output_0: 3c3d6bd6
/model.18/fc/fc.3/Sigmoid_output_0: 3bd709d2
/model.18/Reshape_1_output_0: 3bd709d2
/model.18/Mul_output_0: 3cc4a17e
/model.18/Slice_output_0: 3cac051c
/model.18/Slice_1_output_0: 3cb6b144
/model.18/Concat_2_output_0: 3cc4a17e
/model.18/Add_output_0: 3d4c1004
/Slice_6_output_0: 3d491564
/Slice_7_output_0: 3d34af27
/model.19/cv1/conv/Conv_output_0: 3d459b06
/model.19/cv1/act/Sigmoid_output_0: 3c008f79
/model.19/cv1/act/Mul_output_0: 3cbf7886
/model.19/Split_output_0: 3cd3e553
/model.19/Split_output_1: 3cbf7886
/model.19/m.0/cv1/conv/Conv_output_0: 3d6c1333
/model.19/m.0/cv1/act/Sigmoid_output_0: 3c00aea4
/model.19/m.0/cv1/act/Mul_output_0: 3cd3e717
/model.19/m.0/cv2/conv/Conv_output_0: 3d756ec9
/model.19/m.0/cv2/act/Sigmoid_output_0: 3c00d2cb
/model.19/m.0/cv2/act/Mul_output_0: 3cffd05e
/model.19/m.0/Add_output_0: 3d7d3119
/model.19/Concat_output_0: 3d1436b6
/model.19/cv2/conv/Conv_output_0: 3d51c109
/model.19/cv2/act/Sigmoid_output_0: 3c00a76f
/model.19/cv2/act/Mul_output_0: 3cc0054a
/model.20/cv1/conv/Conv_output_0: 3d51952a
/model.20/cv1/act/Sigmoid_output_0: 3c00be81
/model.20/cv1/act/Mul_output_0: 3d1272f2
/model.20/m/MaxPool_output_0: 3d1272f2
/model.20/m_1/MaxPool_output_0: 3d1272f2
/model.20/m_2/MaxPool_output_0: 3d1272f2
/model.20/Concat_output_0: 3d6909b1
/model.20/cv2/conv/Conv_output_0: 3d6c5223
/model.20/cv2/act/Sigmoid_output_0: 3c009862
/model.20/cv2/act/Mul_output_0: 3ce8dfbe
/model.21/cv1/conv/Conv_output_0: 3d46c0b2
/model.21/cv1/act/Sigmoid_output_0: 3c00dad5
/model.21/cv1/act/Mul_output_0: 3d020210
/model.21/Split_output_0: 3ce72651
/model.21/Split_output_1: 3cd4e822
/model.21/m.0/spatial_mixing/Split_output_0: 3d020210
/model.21/m.0/spatial_mixing/Split_output_1: 3cbfa0a7
/model.21/m.0/spatial_mixing/partial_conv3/Conv_output_0: 3d1befc3
/model.21/m.0/spatial_mixing/Concat_output_0: 3cd30d6d
/model.21/m.0/mlp/mlp.0/conv/Conv_output_0: 3d49f76e
/model.21/m.0/mlp/mlp.0/act/Sigmoid_output_0: 3c0070c4
/model.21/m.0/mlp/mlp.0/act/Mul_output_0: 3cd2798e
/model.21/Concat_output_0: 3d020210
/model.21/cv2/conv/Conv_output_0: 3d33a26b
/model.21/cv2/act/Sigmoid_output_0: 3c00b0ff
/model.21/cv2/act/Mul_output_0: 3cc01bab
/model.22/cv1/conv/Conv_output_0: 3d4249ef
/model.22/cv1/act/Sigmoid_output_0: 3c009405
/model.22/cv1/act/Mul_output_0: 3d00ee81
/model.22/m/MaxPool_output_0: 3d00ee81
/model.22/m_1/MaxPool_output_0: 3d00ee81
/model.22/m_2/MaxPool_output_0: 3d00ee81
/model.22/Concat_output_0: 3d413b55
/model.22/cv2/conv/Conv_output_0: 3d5beafb
/model.22/cv2/act/Sigmoid_output_0: 3c00a54d
/model.22/cv2/act/Mul_output_0: 3cea2dcc
/model.23/Add_output_0: 3d79d352
/model.24/Add_output_0: 3d8f60a7
/model.25/Add_output_0: 3d6607a6
/model.26/Resize_output_0: 3d6607a6
/model.27/Concat_output_0: 3d8c893a
/model.28/cv1/conv/Conv_output_0: 3d7c6b58
/model.28/cv1/act/Sigmoid_output_0: 3c00c8cf
/model.28/cv1/act/Mul_output_0: 3d00e8a1
/model.28/Split_output_0: 3d00e8a1
/model.28/Split_output_1: 3ce5fb42
/model.28/m.0/cv1/conv/Conv_output_0: 3d79d587
/model.28/m.0/cv1/act/Sigmoid_output_0: 3c00e60d
/model.28/m.0/cv1/act/Mul_output_0: 3ce60690
/model.28/m.0/cv2/conv/Conv_output_0: 3d7b345b
/model.28/m.0/cv2/act/Sigmoid_output_0: 3c00ee86
/model.28/m.0/cv2/act/Mul_output_0: 3d0fc21e
/model.28/Concat_output_0: 3cd0c2c2
/model.28/cv2/conv/Conv_output_0: 3d71c2ca
/model.28/cv2/act/Sigmoid_output_0: 3c00ed38
/model.28/cv2/act/Mul_output_0: 3d02f9d9
/model.29/Resize_output_0: 3d02f9d9
/model.30/Concat_output_0: 3d29570a
/model.31/cv1/conv/Conv_output_0: 3d56ccc3
/model.31/cv1/act/Sigmoid_output_0: 3c007d87
/model.31/cv1/act/Mul_output_0: 3ce97c81
/model.31/Split_output_0: 3d11f54b
/model.31/Split_output_1: 3cd2faae
/model.31/m.0/cv1/conv/Conv_output_0: 3d4a5d16
/model.31/m.0/cv1/act/Sigmoid_output_0: 3c001520
/model.31/m.0/cv1/act/Mul_output_0: 3cd3efd8
/model.31/m.0/cv2/conv/Conv_output_0: 3d8be8df
/model.31/m.0/cv2/act/Sigmoid_output_0: 3c00eced
/model.31/m.0/cv2/act/Mul_output_0: 3d4323a4
/model.31/Concat_output_0: 3d2729cc
/model.31/cv2/conv/Conv_output_0: 3daa0be4
/model.31/cv2/act/Sigmoid_output_0: 3c010495
/model.31/cv2/act/Mul_output_0: 3ce8808c
/model.32/conv/Conv_output_0: 3d9dd241
/model.32/act/Sigmoid_output_0: 3c02141b
/model.32/act/Mul_output_0: 3d4575d8
/model.33/Concat_output_0: 3d1440c2
/model.34/cv1/conv/Conv_output_0: 3d7fde39
/model.34/cv1/act/Sigmoid_output_0: 3c010b95
/model.34/cv1/act/Mul_output_0: 3d01c337
/model.34/Split_output_0: 3ce74bca
/model.34/Split_output_1: 3d01c337
/model.34/m.0/cv1/conv/Conv_output_0: 3d813464
/model.34/m.0/cv1/act/Sigmoid_output_0: 3c01085d
/model.34/m.0/cv1/act/Mul_output_0: 3d138700
/model.34/m.0/cv2/conv/Conv_output_0: 3d8a9633
/model.34/m.0/cv2/act/Sigmoid_output_0: 3c0111c8
/model.34/m.0/cv2/act/Mul_output_0: 3cffc43e
/model.34/Concat_output_0: 3cffc43e
/model.34/cv2/conv/Conv_output_0: 3d82efb0
/model.34/cv2/act/Sigmoid_output_0: 3c00f04c
/model.34/cv2/act/Mul_output_0: 3d11687e
/model.35/conv/Conv_output_0: 3d3640ff
/model.35/act/Sigmoid_output_0: 3c00ca99
/model.35/act/Mul_output_0: 3cc153f0
/model.36/Concat_output_0: 3d24d894
/model.37/cv1/conv/Conv_output_0: 3d0e2a44
/model.37/cv1/act/Sigmoid_output_0: 3c008cef
/model.37/cv1/act/Mul_output_0: 3cc2e14e
/model.37/Split_output_0: 3c9a6e68
/model.37/Split_output_1: 3cc2e14e
/model.37/m.0/cv1/conv/Conv_output_0: 3d08d8e8
/model.37/m.0/cv1/act/Sigmoid_output_0: 3bfda46f
/model.37/m.0/cv1/act/Mul_output_0: 3cb312d1
/model.37/m.0/cv2/conv/Conv_output_0: 3cf7754c
/model.37/m.0/cv2/act/Sigmoid_output_0: 3bfbf861
/model.37/m.0/cv2/act/Mul_output_0: 3c8fef1b
/model.37/Concat_output_0: 3cc2e14e
/model.37/cv2/conv/Conv_output_0: 3ce71a83
/model.37/cv2/act/Sigmoid_output_0: 3bfb34e2
/model.37/cv2/act/Mul_output_0: 3c8fea3b
/model.38/cv2.0/cv2.0.0/conv/Conv_output_0: 3d969451
/model.38/cv2.0/cv2.0.0/act/Sigmoid_output_0: 3c006590
/model.38/cv2.0/cv2.0.0/act/Mul_output_0: 3d025cc5
/model.38/cv2.0/cv2.0.1/conv/Conv_output_0: 3db13b37
/model.38/cv2.0/cv2.0.1/act/Sigmoid_output_0: 3c011221
/model.38/cv2.0/cv2.0.1/act/Mul_output_0: 3d474fe8
/model.38/cv2.0/cv2.0.2/Conv_output_0: 3e05c0f4
/model.38/cv3.0/cv3.0.0/conv/Conv_output_0: 3dc4ed3a
/model.38/cv3.0/cv3.0.0/act/Sigmoid_output_0: 3c0111f2
/model.38/cv3.0/cv3.0.0/act/Mul_output_0: 3d015373
/model.38/cv3.0/cv3.0.1/conv/Conv_output_0: 3e62b7d2
/model.38/cv3.0/cv3.0.1/act/Sigmoid_output_0: 3c010a14
/model.38/cv3.0/cv3.0.1/act/Mul_output_0: 3dcbd480
/model.38/cv3.0/cv3.0.2/Conv_output_0: 3f161a2f
/model.38/Concat_output_0: 3ea3fbab
/model.38/cv2.1/cv2.1.0/conv/Conv_output_0: 3d7c491c
/model.38/cv2.1/cv2.1.0/act/Sigmoid_output_0: 3c00f0ce
/model.38/cv2.1/cv2.1.0/act/Mul_output_0: 3d11e6b3
/model.38/cv2.1/cv2.1.1/conv/Conv_output_0: 3dce6d6a
/model.38/cv2.1/cv2.1.1/act/Sigmoid_output_0: 3c010a14
/model.38/cv2.1/cv2.1.1/act/Mul_output_0: 3d6e4d1c
/model.38/cv2.1/cv2.1.2/Conv_output_0: 3dcd8a4f
/model.38/cv3.1/cv3.1.0/conv/Conv_output_0: 3dab8dfa
/model.38/cv3.1/cv3.1.0/act/Sigmoid_output_0: 3c010938
/model.38/cv3.1/cv3.1.0/act/Mul_output_0: 3d00c6c5
/model.38/cv3.1/cv3.1.1/conv/Conv_output_0: 3de5bc1c
/model.38/cv3.1/cv3.1.1/act/Sigmoid_output_0: 3c010a14
/model.38/cv3.1/cv3.1.1/act/Mul_output_0: 3d26f557
/model.38/cv3.1/cv3.1.2/Conv_output_0: 3e94e579
/model.38/Concat_1_output_0: 3e5dbf77
/model.38/cv2.2/cv2.2.0/conv/Conv_output_0: 3d128d59
/model.38/cv2.2/cv2.2.0/act/Sigmoid_output_0: 3c010698
/model.38/cv2.2/cv2.2.0/act/Mul_output_0: 3cd2baf7
/model.38/cv2.2/cv2.2.1/conv/Conv_output_0: 3d2ae5b6
/model.38/cv2.2/cv2.2.1/act/Sigmoid_output_0: 3c028a2f
/model.38/cv2.2/cv2.2.1/act/Mul_output_0: 3cbd3f16
/model.38/cv2.2/cv2.2.2/Conv_output_0: 3c21659b
/model.38/cv3.2/cv3.2.0/conv/Conv_output_0: 3cb13b81
/model.38/cv3.2/cv3.2.0/act/Sigmoid_output_0: 3bf22eca
/model.38/cv3.2/cv3.2.0/act/Mul_output_0: 3c52e76e
/model.38/cv3.2/cv3.2.1/conv/Conv_output_0: 3ca94293
/model.38/cv3.2/cv3.2.1/act/Sigmoid_output_0: 3beecb44
/model.38/cv3.2/cv3.2.1/act/Mul_output_0: 3c9a8700
/model.38/cv3.2/cv3.2.2/Conv_output_0: 3dc68c8f
/model.38/Concat_2_output_0: 3dc39dc5
/model.38/Reshape_output_0: 3ea3fbab
/model.38/Reshape_1_output_0: 3e5dbf77
/model.38/Reshape_2_output_0: 3dc39dc5
/model.38/Concat_6_output_0: 3e9476d5
(Unnamed Layer* 967) [Constant]_output: 3e810a14
/model.38/Split_output_0: 3d810a14
/model.38/Split_output_1: 3e010a14
/model.38/Split_output_2: 3e810a14
/model.38/Range_output_0: 3f1f4871
(Unnamed Layer* 991) [Shuffle]_output: 3c010a14
(Unnamed Layer* 993) [Shuffle]_output: 3b810a14
/model.38/Add_output_0: 3f204a85
/model.38/Range_1_output_0: 3f1f4871
(Unnamed Layer* 1006) [Shuffle]_output: 3c010a14
(Unnamed Layer* 1008) [Shuffle]_output: 3b810a14
/model.38/Add_1_output_0: 3f204a85
/model.38/Reshape_5_output_0: 3f204a85
/model.38/Expand_output_0: 3f204a85
/model.38/Reshape_6_output_0: 3f204a85
/model.38/Expand_1_output_0: 3f204a85
/model.38/Unsqueeze_3_output_0: 3f204a85
/model.38/Unsqueeze_4_output_0: 3f204a85
/model.38/Concat_10_output_0: 3f204a85
/model.38/Reshape_7_output_0: 3f204a85
(Unnamed Layer* 1059) [Constant]_output: 0
(Unnamed Layer* 1060) [Shuffle]_output: 0
/model.38/ConstantOfShape_output_0: 0
(Unnamed Layer* 1063) [Shuffle]_output: 3d810a14
/model.38/Add_2_output_0: 3d810a14
/model.38/Range_2_output_0: 3e9d4449
(Unnamed Layer* 1082) [Shuffle]_output: 3c010a14
(Unnamed Layer* 1084) [Shuffle]_output: 3b810a14
/model.38/Add_3_output_0: 3e9f4871
/model.38/Range_3_output_0: 3e9d4449
(Unnamed Layer* 1097) [Shuffle]_output: 3c010a14
(Unnamed Layer* 1099) [Shuffle]_output: 3b810a14
/model.38/Add_4_output_0: 3e9f4871
/model.38/Reshape_10_output_0: 3e9f4871
/model.38/Expand_2_output_0: 3e9f4871
/model.38/Reshape_11_output_0: 3e9f4871
/model.38/Expand_3_output_0: 3e9f4871
/model.38/Unsqueeze_6_output_0: 3e9f4871
/model.38/Unsqueeze_7_output_0: 3e9f4871
/model.38/Concat_15_output_0: 3e9f4871
/model.38/Reshape_12_output_0: 3e9f4871
(Unnamed Layer* 1150) [Constant]_output: 0
(Unnamed Layer* 1151) [Shuffle]_output: 0
/model.38/ConstantOfShape_1_output_0: 0
(Unnamed Layer* 1154) [Shuffle]_output: 3e010a14
/model.38/Add_5_output_0: 3e010a14
/model.38/Range_4_output_0: 3e193bf8
(Unnamed Layer* 1173) [Shuffle]_output: 3c010a14
(Unnamed Layer* 1175) [Shuffle]_output: 3b810a14
/model.38/Add_6_output_0: 3e1d4449
/model.38/Range_5_output_0: 3e193bf8
(Unnamed Layer* 1188) [Shuffle]_output: 3c010a14
(Unnamed Layer* 1190) [Shuffle]_output: 3b810a14
/model.38/Add_7_output_0: 3e1d4449
/model.38/Reshape_15_output_0: 3e1d4449
/model.38/Expand_4_output_0: 3e1d4449
/model.38/Reshape_16_output_0: 3e1d4449
/model.38/Expand_5_output_0: 3e1d4449
/model.38/Unsqueeze_9_output_0: 3e1d4449
/model.38/Unsqueeze_10_output_0: 3e1d4449
/model.38/Concat_20_output_0: 3e1d4449
/model.38/Reshape_17_output_0: 3e1d4449
(Unnamed Layer* 1241) [Constant]_output: 0
(Unnamed Layer* 1242) [Shuffle]_output: 0
/model.38/ConstantOfShape_2_output_0: 0
(Unnamed Layer* 1245) [Shuffle]_output: 3e810a14
/model.38/Add_8_output_0: 3e810a14
/model.38/Concat_22_output_0: 3f204a85
/model.38/Concat_23_output_0: 3e810a14
/model.38/Transpose_output_0: 3f204a85
/model.38/Transpose_1_output_0: 3e810a14
/model.38/Split_1_output_0: 3dd7b8dc
/model.38/Split_1_output_1: 3ed0d0c3
/model.38/dfl/Reshape_output_0: 3dd7b8dc
/model.38/dfl/Transpose_output_0: 3dd7b8dc
(Unnamed Layer* 1274) [Softmax]_output: 3bd512de
/model.38/dfl/conv/Conv_output_0: 3d9e554a
/model.38/dfl/Reshape_1_output_0: 3d9e554a
/model.38/Unsqueeze_12_output_0: 3f204a85
/model.38/Slice_output_0: 3d9e554a
/model.38/Slice_1_output_0: 3d74cef2
/model.38/Sub_output_0: 3f1ff463
/model.38/Add_10_output_0: 3f2191ef
/model.38/Add_11_output_0: 3fa0c1d2
(Unnamed Layer* 1357) [Shuffle]_output: 3c810a14
/model.38/Div_1_output_0: 3f20c1d2
/model.38/Sub_1_output_0: 3df47552
/model.38/Concat_24_output_0: 3f2a03d4
(Unnamed Layer* 1364) [Shuffle]_output: 3e810a14
/model.38/Mul_5_output_0: 40a5ef6b
/model.38/Sigmoid_output_0: 3bdef256
output0: 40a5ef6b
